1bfe0f12fc0e17fedf361f04021f28f329e3f30af4272c03f2f9132b0b29651cd52f062af71a26eedde5df040e11c702dedae707f119f31aed2503200cf1eee7
d82bdf1d08f1faef2cd1f1220b2b2f0cd30a2d2e0a252beeeb320e2801fe2cd7d5caec0c0c291d0ce8fb0b1fed1e03e6d936e424090ae9ea45f4f4f9f60c35ef
010700ecfee0f2fffff9e90309e204110df4f50dfdddef0d05fa06e608efdc18fd14e9f3fdd8e90d060fdffff4e5ca1f22eaf2ff0c2530fd0116030afc2a31f9
1d2f12cff2d6f6051f1a09e0ffe5f3171d26fcf40c0be5082b2019e10e0b0619142c20d4ed07eb1125f202e606fd0015120d12edee0804fd071507f5f7e3f113
d628f32df7121deef4eee914f7040b18e3e2fa060c0feefae52a1026eff901fa1429fbc500edf9052a28e8e009cada1c2dff06dd04c7f4192c29fcd8ee01f805
15f601f7f2e6cb1de4d9ef03fb1bfb101008ff0ff0f6eaf223fbea18edf7f8f01c1f1307ff0010efe321fc080711040510e20401ef2335f3f11b0a0ff53550ed
debcfa09ec280916cb13f53401ffe2fe02e0f9edffe9e8ef3ae907faf613fd20e62608f7fb1d01f920eb03eff0f3eaf926d60f0c040f1317e00b2a07fe1d1afc
f329f61d0709cff856dfdf130af3cee25bf30f19022124f3e6171a0e011143de3ae6072600042ed0f8f12721104570fcd7362324f12248eb17cfed03fffcf61c
35fbfae7fcf1ed0220fc11ecfcf1f116f703efec0304f71731eafc08f71725f1fdf81b1b111c200c0310f20b09031106fefdfa030f06edff02fdf1fcf41c1112
14280e1ded1b2de7ff07e902e52c13f430120405001617f47f342c03051f41f10ff1f3e72a0608fdd219e9e50dffc307390f1408160b07e408e3e7f717f20f06
ebe0d9e9f924f80844400ef2f23f08ef31140cfe0b1c34d6f307ecf9f724f9022723efe4f727fd03250a09e329031303ecf2eaf61806d9f8233a0e06d9040603
fdf30a1217fbef0fefe7f41c20e1f01df10700122bf40f1fd5ecef080dd7e310c9fa051222d3e714e3e5f7fafedff417112cf4f3d2371715fa17defad6150205
fe0513181cd81c24d7eb191010e51d1014e8161f1ceb112a03001f0502ec051c101111072ed61a24ed09f0030de5031cf6061418f80918f7f603fe0307fd03f8
ec05faf7101afb032d27e4e7f204d90831f70af82507070308ebeefc26feea1400ec101a05ea031cc9d7ff112bd7fc2ce3e60d220ad6ff33fef92e1707d4112d
b9fc021e0cf7d30e33191400171ef1f70d1114f02403f9fde014fd09d6fd0417ec16fbfde02802f2fdf3eaf6df0f0cfb1b291f01dd211cf55a3711ebf93b36e5
3e2cfcdb2427ddd44d1becf43a19eee0f3faedf4f8e6fa25fb03f812f8fc030d000c09140515010cf21e0f15f3e60410312e20f4070f1bf32ffdfcfc0c0e01f8
fb05f6fd03e7f20ac61fd5f6cdf4e807fa19fe13ca181de02926e5f1dd3d1be3031d0114de19f20651381de4d73f2dd528170dec1c4011ee1107d3e6132cd2dd
bbf4f21a070aef20d412030502100c0ae702010af205f2001b080113f11706fb0d221b0c05212406edf5f90c16f9f70818fd041602f6e8092f1009010303100c
