106
68
-13
-40
-30
-118
-57
73
-66
-110
47
-14
-6
102
83
-34
62
82
-54
-106
14
73
-6
14
-67
-9
83
0
-95
51
-22
-11
67
80
50
-9
19
-82
-37
54
16
5
63
-41
-3
-96
106
87
28
56
-13
60
-4
-15
5
82
-35
-56
-114
87
53
-1
68
7
-111
-12
-26
-2
54
-106
106
8
65
13
70
-120
-52
47
7
72
-110
49
-28
66
42
-16
-80
-71
92
-28
107
-81
-51
23
51
66
-41
62
-80
-62
112
-12
-108
65
1
-43
-87
91
45
104
-88
40
105
-4
-90
23
-13
29
-49
-24
-88
18
17
97
-41
-25
44
32
-14
-71
89
-72
-127
6
0
38
-3
-13
-110
-12
74
6
95
103
