47
52
-14
3
-1
55
-8
-74
-50
-31
-51
-16
-25
-3
-77
8
-40
-15
12
-46
31
-64
-8
-8
-48
-68
-40
-78
-35
-20
-61
-2
54
68
-15
33
-61
34
57
-64
-83
-50
68
13
-63
54
46
-25
31
1
-33
56
22
10
7
-26
-27
34
-42
33
40
42
6
47
22
6
34
-1
56
-55
44
57
28
-70
-58
4
23
21
-59
-59
-4
-10
-2
-82
43
-38
25
-51
13
-20
-8
61
33
-63
15
61
29
-55
61
-3
27
0
30
-4
-29
29
-69
-5
51
-78
17
-62
-22
11
-24
-5
-18
14
25
-13
-16
-81
-53
32
-9
-39
-12
-50
38
14
-56
0
16
-85
45
23
53
-61
-37
40
-86
63
-69
64
5
65
-7
-82
-46
59
38
61
6
29
-55
-46
-74
-28
-39
45
48
24
-27
18
-3
-44
-70
-15
-42
51
-39
-29
-61
-81
-4
-89
6
-44
40
-1
51
38
-30
56
-73
-74
3
34
-5
47
49
-67
18
36
-47
-85
-40
-22
48
-39
42
-51
-63
1
42
16
-90
-12
-69
-30
-74
19
54
65
-47
-49
-32
1
-31
-67
-32
-57
-62
-77
-50
37
9
-79
-33
60
-3
-43
3
4
68
23
-31
-64
26
2
7
45
62
47
-29
67
43
-18
66
-53
73
19
-44
-16
55
63
57
-66
-5
-32
-75
66
-23
40
-61
-10
-1
-72
13
-70
38
-54
-21
66
56
15
20
52
-61
34
-32
-80
-2
-78
-62
-59
16
-46
46
29
-7
56
26
1
10
-31
-76
-62
24
-44
46
-26
-15
-59
-29
-63
-3
-7
51
61
69
64
54
14
-66
-77
46
1
37
6
7
35
1
27
62
24
38
9
70
-74
-53
-64
25
-72
-25
1
70
7
-79
46
47
48
-56
-26
48
-16
58
25
-43
-9
14
-37
-31
-24
18
-35
-69
-27
40
9
13
-74
-20
53
-40
16
-39
-10
69
60
-39
10
60
53
60
-73
-70
-13
11
-45
25
-75
19
49
-12
-72
-82
-35
17
-23
-26
27
-32
12
-75
52
-68
21
17
21
14
-35
9
-78
-65
54
-32
22
41
-49
60
17
11
1
53
-25
-44
-27
-70
22
16
-40
-26
-35
-4
-46
-17
68
-20
5
-67
-23
-42
-8
7
-6
-16
-23
45
40
27
-77
-1
-55
-48
-61
-33
-29
-58
16
46
-68
58
65
52
42
-26
-36
-31
-17
-53
-68
-76
-11
25
28
47
-1
-32
18
22
-1
7
-6
3
-52
66
-45
48
-34
48
3
30
-70
-42
5
-40
25
-34
-11
-29
-45
-4
-10
62
-10
-78
4
-30
-58
44
21
-3
49
11
-10
-44
-32
-20
-62
17
-17
56
68
68
-33
16
-62
-32
-32
-68
-46
64
68
-54
-17
-17
33
-11
71
-42
31
46
-38
-28
-47
21
-22
61
66
-68
61
-21
-38
-11
-40
-60
40
12
67
20
-17
-70
28
-44
71
-26
-30
48
21
15
-24
-28
0
43
56
27
-33
-10
-23
-61
-82
-27
56
-73
70
62
51
68
52
35
-68
10
-63
45
56
54
-75
-45
-74
41
30
57
-22
4
-72
-65
-67
-1
-42
10
3
-61
-68
-27
-68
-79
-1
43
-83
54
58
1
4
-30
-77
9
127
33
53
-69
51
65
-27
10
-5
28
3
-17
-24
-68
3
-66
-13
47
-9
-64
69
-13
-40
-13
-35
53
73
-15
11
-64
34
-85
48
-3
-59
49
0
15
-13
-63
-66
-55
-20
42
45
-21
-4
-75
-41
-68
7
-73
-48
-67
-38
-74
-92
19
38
-2
27
-8
107
14
-17
39
-87
7
35
74
-10
40
2
-79
-57
-62
-32
-56
58
9
12
-32
-30
-6
12
21
-23
61
33
87
-36
71
-71
-10
-59
-35
56
29
-42
75
6
-45
-63
44
-60
-67
28
46
-28
-62
10
18
-31
0
-44
-31
73
-14
69
-64
30
59
-35
-42
47
42
-38
-44
76
-38
53
-58
6
-15
-56
28
-47
32
68
-33
-18
-19
23
38
-21
19
11
-50
-16
-75
-48
40
-78
75
50
27
-41
-13
19
-67
42
-51
45
-61
-52
-10
62
13
68
-21
42
68
-17
49
39
38
14
-26
-41
-53
3
25
-60
-36
61
-21
-37
57
-14
11
32
-57
0
-7
-19
-42
-65
39
-53
-57
-60
65
-64
24
-49
3
11
46
-47
-47
35
-38
-65
38
-35
24
7
-41
-65
3
60
52
-76
39
-60
12
19
-57
20
-46
35
34
38
-74
-58
-19
58
74
-86
58
16
-40
-23
-68
5
-75
82
18
15
2
-60
-72
-67
1
34
-71
6
-24
25
39
-34
-74
-53
-32
-50
26
-5
52
-20
7
34
-35
-2
-15
32
35
-54
-56
-21
9
-48
-37
-6
76
16
-47
36
-57
9
17
41
-12
-15
-78
-56
-83
6
40
58
-61
32
26
-15
15
21
-86
-41
-27
55
-25
-82
11
-60
-30
54
-15
35
-24
8
-29
41
37
7
-11
-34
-62
-58
20
21
21
48
51
-65
-21
-21
17
56
52
-54
-74
10
-40
58
64
11
-54
-53
60
-82
-54
6
-82
-36
-38
-63
-3
26
-5
46
-20
42
-76
-2
-40
62
11
-46
8
-32
-4
25
-36
58
-39
33
38
25
-41
-32
-46
31
-10
0
25
-74
-80
-27
-68
11
35
-53
21
-66
67
-22
-19
-38
2
4
-22
0
-70
55
63
48
-66
16
41
-30
-50
49
25
-35
-41
-28
-79
-67
61
32
36
50
-6
48
25
27
18
-1
78
3
4
55
-21
1
-78
10
-71
-23
-29
64
-74
-76
28
-71
14
9
3
-47
64
-10
-6
-29
8
-60
36
-13
-57
3
-61
-51
-33
40
18
0
63
23
-59
-56
9
-47
-5
-64
-12
18
-74
35
-12
-54
-50
-28
42
-19
-19
-2
0
63
43
-65
-83
46
3
60
26
3
-50
-73
45
60
-18
-33
66
-13
-62
-58
-46
-73
-11
17
41
9
-13
46
44
28
-24
-37
-62
67
-31
31
60
36
-42
26
-67
34
-37
-67
-61
-65
23
-81
-66
-36
13
53
-60
37
4
-19
13
-13
-27
-56
-37
39
-62
34
-19
12
44
-67
-28
2
-43
-60
-48
23
46
-76
47
-14
-80
-44
51
42
39
-60
-75
65
-64
18
-20
15
66
52
-80
60
-59
50
-4
57
34
62
-5
-47
-13
49
-17
28
-30
46
67
36
-83
-26
-58
-29
-32
-38
-11
-28
-63
49
53
58
10
67
0
0
60
51
32
3
-59
67
65
56
19
-56
-25
12
16
-68
-37
23
-30
35
-73
-3
23
-33
-28
-8
31
-26
67
39
58
49
46
-33
-54
-28
-83
-38
-15
-17
68
46
-81
1
-44
-39
-10
-43
-58
-77
-65
-38
50
-1
-51
15
30
-13
-22
4
-4
27
47
-28
-22
45
-53
-22
-10
38
-33
35
15
47
9
-58
13
-49
-102
-81
-59
-17
-13
-50
49
27
31
-3
58
82
52
-92
-9
-19
-59
-24
-89
57
-24
7
-3
-55
-69
-57
-56
-84
-3
13
-28
-30
-89
40
1
-47
51
-57
-101
45
-79
5
-57
-35
14
-80
39
48
-57
-77
69
16
-40
-55
32
21
-47
-57
-86
-83
-34
-38
-15
20
-23
-32
-28
-10
-56
2
33
-40
-40
-52
76
25
11
5
-17
11
52
0
39
-43
-67
25
31
9
-93
21
-57
-41
59
-88
30
19
-30
-14
-28
60
-42
-57
-93
-23
-20
-62
47
-16
-6
16
-55
-42
-2
12
39
-64
-77
33
-102
19
-57
-3
58
46
-83
-11
-25
-9
32
61
-46
-71
21
0
-48
-45
-48
76
-70
-11
-7
-69
-17
-40
-9
-57
-88
27
-11
-14
-2
-52
-28
8
20
-76
-79
-76
-31
-52
0
56
-27
59
-66
71
57
-43
23
-57
-34
37
-18
-13
18
-22
76
-68
-54
-45
-29
-16
-34
-71
32
-55
58
-43
-55
3
14
37
12
51
-57
-65
-30
-16
-38
-49
-58
-13
34
-2
-81
-7
30
-6
25
-8
15
-62
-36
-1
43
36
-62
8
52
59
-76
3
-33
-70
-15
26
-15
18
-34
43
-2
-52
19
-51
49
-16
-36
21
-56
20
-82
-60
-83
-69
21
-16
70
69
5
41
-56
-32
1
59
40
-3
61
-63
12
-69
61
-16
-48
-18
28
-16
42
23
-43
-47
67
37
-6
36
62
-32
29
51
50
74
-66
54
34
32
10
-70
-81
-38
5
-70
8
45
-63
-63
-49
50
46
61
-2
-70
-66
14
55
32
-9
-16
-29
53
63
42
-2
-50
-10
48
-12
69
-1
0
7
-66
-36
-40
-69
43
32
-67
47
-43
16
-15
11
25
-45
45
9
-49
60
15
-29
-58
-10
-11
-16
0
-63
-49
-79
12
42
-22
-33
-10
-10
-11
17
-32
25
10
-18
-14
-7
30
-31
28
-41
-39
65
-31
55
60
-16
-19
-76
-17
-19
-27
-4
-43
8
35
18
-26
-19
36
-57
71
-52
61
30
-22
-87
-4
65
-75
-27
-47
72
-36
-38
16
-62
3
0
4
3
38
-80
-43
-13
43
-38
-55
-40
-8
-66
-80
-30
8
65
25
-29
54
14
68
-20
-47
-17
-22
-11
-58
-12
-61
-34
-17
50
60
-45
-65
-22
-35
42
-43
-38
-54
-70
31
1
38
-16
1
-7
8
-19
-66
-26
-16
-32
48
-56
-47
36
-81
1
17
69
-54
51
-48
2
20
73
-61
66
-41
62
-51
-20
-35
-50
-42
0
18
38
-69
0
-23
19
12
-20
-15
-53
7
52
39
-74
48
-22
41
-79
-69
-47
64
-60
54
-48
7
-10
26
-23
-7
45
46
34
-58
56
-63
66
13
-42
15
-59
40
65
22
2
57
11
51
-82
15
-42
-5
-17
24
10
-80
-47
66
-71
22
-37
54
54
-10
-65
10
-53
-57
-22
-38
33
20
-13
-68
70
-13
50
53
-29
51
-28
-25
0
23
-6
-57
-9
55
32
22
-34
-65
-7
40
45
-45
30
-46
-41
21
10
-82
40
36
-29
0
31
29
-73
20
50
44
-54
-21
39
1
-67
-76
34
-22
58
53
-71
-51
23
-54
31
30
39
-17
49
0
-9
-8
-56
-8
-23
-56
-27
42
-16
-6
-61
-19
31
-77
49
-67
-7
-78
-40
-66
-3
-55
56
-38
27
-33
-53
61
6
-33
1
40
47
-46
40
-61
16
1
-6
41
66
36
-57
-24
18
32
-79
19
42
-75
2
33
32
71
58
-72
8
-8
-3
-5
-88
-63
-15
15
29
-4
14
34
-53
-6
-78
44
-81
32
-78
-44
-38
17
-9
27
55
48
42
-77
65
64
37
29
-68
55
16
-30
-33
-23
-34
0
-71
-19
-45
-24
-50
15
-59
56
5
20
67
9
-83
58
-67
-63
18
-58
-55
5
48
-4
-27
-45
2
51
56
-24
1
-23
-5
-12
64
-13
66
17
54
-34
-47
-64
-26
-19
-16
-87
-7
-70
69
38
-81
-25
-36
24
30
-65
-13
-19
-29
-61
35
17
-54
44
52
-79
-52
-66
4
66
53
16
-80
-62
68
20
-56
13
-61
-68
66
-4
-29
-20
66
18
-47
14
-48
61
-65
-26
29
33
-33
-34
6
58
68
-37
-42
4
30
4
-7
-51
4
54
-87
-20
72
30
-71
-35
-65
-52
-24
45
41
-2
-43
-43
-43
23
45
25
-38
56
67
21
-12
-56
-10
40
69
20
-65
12
-78
-5
-30
-49
-7
9
-16
-21
-17
60
39
22
64
17
-10
39
4
7
3
23
33
-76
51
39
-64
37
55
-52
26
28
-79
-29
22
32
29
37
-1
13
-7
-56
-79
13
-43
34
16
-36
-66
-76
-27
46
-39
29
19
23
-58
-11
11
61
63
0
36
42
-53
-49
23
-36
34
-79
-8
55
-73
26
-7
39
59
-77
36
-74
36
-43
-57
-76
-72
-41
-4
-63
-86
-83
-13
30
53
55
15
-82
8
-1
-30
-19
12
-27
6
0
25
45
29
-26
-75
64
-48
39
48
-52
51
-22
60
-53
-9
-36
-19
-67
36
-72
26
-58
41
54
-81
49
9
11
10
-50
42
62
14
-4
-27
-76
-54
27
-69
5
41
57
-70
55
-63
67
-13
0
-70
-60
-79
-67
46
43
40
-72
-46
16
-62
-55
-51
51
2
34
-11
21
3
14
8
26
-38
17
-19
45
-22
44
-31
47
42
-26
-59
55
-40
16
29
21
37
50
18
-9
-34
8
37
-71
-20
-59
-79
17
39
-90
34
1
-59
-37
-49
16
-42
58
5
-28
60
56
-66
-43
-23
56
22
-28
39
-50
-65
-48
48
65
-61
-3
-45
59
-36
55
-25
27
22
-4
-74
66
68
-28
31
-20
-74
-83
-19
-7
-78
36
47
54
-51
-2
-71
10
23
-37
30
6
-73
53
4
4
0
24
64
43
31
-15
-29
-54
-85
-52
-19
50
-24
-30
54
-62
-58
-37
29
25
-81
-71
-24
-9
58
-83
45
47
-48
-11
3
-11
-27
-52
-68
-5
-31
43
-31
-69
0
-53
19
-39
-29
5
-84
31
-34
-21
55
-45
-69
55
60
-11
-14
41
-33
-64
-51
-18
-37
43
18
63
-44
-66
-47
-35
-84
-21
-22
-11
52
7
-40
12
-76
-72
18
38
-34
-88
27
36
-71
-27
6
-15
29
10
-37
63
4
-13
38
-46
-12
27
28
-4
23
59
-83
-83
63
6
62
-57
-13
-72
-66
-19
-31
25
1
-27
15
49
17
-66
26
-36
11
54
-35
-22
51
-9
-13
27
-27
-35
-68
42
-22
-47
-75
-66
27
39
-33
-33
-45
19
-9
60
46
-58
-14
15
2
28
59
-23
21
30
43
34
-6
-59
12
-23
43
14
-36
-5
-34
40
5
-3
30
-38
-10
-63
45
29
-48
-70
-2
-47
-46
-27
-77
-84
61
24
-73
66
13
2
-2
-32
18
-34
29
-77
-41
-50
-57
25
23
52
-33
-62
14
-39
-26
-15
-38
-41
50
-16
35
20
-5
-22
68
-24
3
43
-58
-86
-57
70
-68
-14
55
-35
-6
63
-13
-82
-18
-42
-58
5
-56
12
-50
63
38
-1
-31
28
-73
-74
41
-69
-79
57
-59
65
-74
-5
43
-61
31
26
-28
-69
-13
18
63
40
-27
-50
23
-56
-44
-9
20
-4
18
54
39
-20
-30
-71
42
63
14
-62
-33
-53
45
1
8
17
25
72
-10
35
28
68
24
2
-74
45
-66
0
9
70
-59
-56
57
-41
34
-28
-12
7
65
58
-17
60
-35
14
-17
27
48
-76
11
14
-22
-47
15
-52
80
-31
18
84
35
25
-4
-77
26
-60
-49
11
-56
53
14
-28
16
-21
29
-38
27
66
-64
67
-15
-32
-2
-34
-35
-66
-43
47
49
47
-44
5
86
-38
-67
103
7
-20
28
39
-41
21
-22
82
67
19
-44
-52
16
-72
-34
-14
66
-14
-74
-74
-19
-61
-43
16
96
-66
-15
-22
30
16
-60
-39
15
100
-86
30
-22
64
-77
5
43
-36
-37
-10
38
3
8
-56
-53
-57
20
-2
106
36
37
-44
-6
11
-3
-27
77
26
-40
-47
61
-58
-43
68
-56
-29
1
-73
48
-33
6
-18
-73
76
23
-29
57
-32
-68
80
-17
-61
-28
-52
61
-46
-39
63
-44
-49
-25
-45
7
24
1
17
-44
-8
12
-47
-52
14
-26
75
39
22
-33
-11
-75
-51
8
9
9
-2
-36
86
6
-64
90
27
-16
43
33
72
8
90
91
-11
74
-11
3
2
-9
29
4
-5
17
-62
-65
91
33
-34
-9
74
20
-42
-31
-7
-33
-66
48
2
-70
63
-16
-33
42
-41
-36
41
67
77
85
-34
70
87
25
21
-15
42
-10
-28
20
39
-35
2
39
6
-5
-74
13
-65
15
22
68
42
-67
-50
-10
-69
-61
-67
-22
95
-37
-47
-15
-38
92
16
-38
1
61
-60
-6
35
-67
2
-63
-48
32
81
70
46
78
71
-19
25
-73
-12
-14
-60
40
71
68
25
-23
-52
-15
-56
18
4
8
-3
6
-44
-36
23
-56
-54
82
57
20
89
23
-9
38
55
-43
-60
37
1
-30
7
51
-41
-26
61
-7
21
61
64
6
27
-17
3
52
-32
37
-27
-52
-30
21
28
-43
0
-78
-58
38
-4
-32
-27
21
48
56
-16
-74
50
68
-21
27
-69
-10
38
-74
-33
-12
30
44
-26
-1
-48
56
-27
-37
-63
63
-36
44
-9
-57
-13
-80
-11
-26
-33
30
-75
-28
25
-66
-24
-55
-6
6
11
-50
35
53
19
65
6
-52
-19
22
-61
-63
-17
13
-15
18
-72
-33
37
-29
-42
42
-80
-75
-52
24
32
48
-45
-52
-19
-78
3
11
-75
-56
32
-16
55
-86
48
-43
-16
15
-27
-32
-79
-39
-33
-55
52
18
-45
30
-35
-60
39
61
-27
-71
56
-63
-43
10
35
-84
-44
-49
-71
27
55
42
55
1
24
22
55
54
-64
62
-44
46
43
-26
16
-75
-69
48
-57
33
-7
49
-18
3
19
-28
29
44
-80
0
33
-58
-81
-17
66
43
-40
48
-21
-61
-16
62
-14
0
31
-59
-70
-35
38
54
38
-28
-24
61
53
43
64
30
4
-26
-76
13
64
-81
1
-9
10
26
-23
60
-68
1
-14
-58
-35
54
58
-83
17
3
-22
20
-33
-75
-68
-56
51
33
2
-61
-12
-74
-8
-59
-59
-34
-21
-88
21
-3
-8
-71
49
62
-65
10
-42
-15
36
29
-38
51
-63
-19
-16
2
60
16
-93
66
-12
37
-63
-50
-4
-30
-13
59
-83
29
-57
17
-80
-37
-49
9
-5
14
-26
-72
29
-26
-49
14
-56
48
-21
-60
65
2
-5
-67
-38
13
47
59
-4
20
-43
-77
-63
-6
-53
-42
-9
-19
-5
-68
4
-41
4
-22
-79
34
-70
-30
19
-75
-9
19
-68
-17
53
38
32
-69
-47
5
17
50
51
25
-17
0
-17
9
-84
19
62
-44
-44
-53
37
0
61
46
7
40
6
-40
20
-32
-1
9
-37
45
2
-7
-67
27
23
34
2
64
38
34
-70
7
-18
-53
-24
7
-71
24
-66
57
41
62
-20
-54
-4
-10
-61
21
-15
68
-38
-24
20
-32
16
-48
54
-30
-67
-66
-79
-38
-71
43
58
3
-61
54
15
2
55
-74
65
-7
-64
-69
28
43
-14
51
-57
16
15
24
-18
-17
-15
15
-25
1
-62
-10
35
29
-13
30
-1
30
4
-9
-18
22
-40
-57
47
-72
44
-45
45
32
-46
-14
-29
-14
58
28
60
-53
68
3
3
19
45
51
49
-29
-39
52
-54
-76
-23
54
1
-26
-4
-19
-50
-3
30
-57
-73
-11
-33
-43
10
6
24
49
-71
41
51
35
-18
14
31
53
-68
-43
33
-73
-14
38
-56
0
48
19
-58
47
8
15
15
-80
-7
-12
-64
60
41
-45
44
45
4
17
33
5
5
0
-30
-30
3
-31
67
-65
48
33
21
63
20
62
-9
-71
27
15
-1
-49
-68
-43
69
16
12
2
26
0
-10
61
48
35
-36
-17
-34
33
-84
-24
56
3
43
-20
-13
-79
-82
-27
-28
-37
-7
-74
18
11
-21
-83
-7
-77
-3
-77
32
-35
57
-16
-62
-34
0
63
66
5
3
-36
69
-44
36
44
60
43
43
21
-37
-11
66
-40
33
-96
-24
-114
-32
68
-57
-53
-19
-31
61
-62
11
-14
-42
14
0
4
39
-40
11
-36
-31
0
-64
-18
-73
-42
-40
-51
59
-17
-67
76
6
-60
21
-5
-18
28
-23
33
-21
72
44
53
-25
-66
1
60
-3
55
-30
12
2
-74
-82
17
-42
35
-42
64
0
-24
-15
-82
-69
75
-36
-54
32
-19
-30
44
-65
-85
-28
-13
30
29
57
-49
11
-47
-27
57
-45
-68
-23
-80
-31
-50
-85
28
50
-20
-23
34
23
0
-50
-52
62
31
-79
60
66
67
40
31
-16
52
40
61
31
-77
-79
23
55
65
49
-32
-15
-6
-27
-55
-42
61
-7
-75
1
3
35
-7
-64
59
18
66
-66
-55
25
72
35
52
-56
-36
76
10
67
49
-23
34
-57
57
-65
-21
-27
2
16
77
-3
52
-8
-85
-54
45
-16
49
42
44
-70
67
-7
-76
-17
-5
10
55
-30
47
-84
43
-44
-17
-8
37
26
1
-15
-44
34
-2
57
-12
-56
-32
-50
-39
-54
19
-31
-78
77
41
-74
-44
-13
-14
-29
-71
62
-76
-81
5
53
-27
17
32
-6
30
-22
23
31
-66
-70
-91
43
53
-48
59
76
46
-3
51
3
-50
6
-61
-54
-16
9
-38
-75
88
-73
40
-8
-100
76
15
-10
55
64
37
16
-31
-84
33
8
-50
50
-42
-40
-50
-23
-19
55
-82
17
-46
29
-23
-3
-28
16
-2
-63
-60
-75
-22
12
21
51
25
-8
-61
31
-36
-47
-54
-17
10
40
39
-75
-72
32
-61
-36
13
-50
38
-57
35
-57
-60
-33
-36
46
-59
2
-56
-27
58
-65
-61
-72
21
-26
-70
8
53
-29
4
-23
-32
45
-72
22
-30
-8
51
19
-49
-8
-18
-14
55
0
-43
-40
-22
-21
-20
66
-54
31
-76
28
53
-51
-32
37
21
31
-45
-58
18
-55
25
-10
60
30
-61
0
-40
-77
4
-69
58
-27
-23
-39
-28
-2
6
0
-57
28
0
48
-39
-9
5
59
-11
-76
46
10
57
22
-14
42
-32
32
-36
61
-31
45
33
9
54
-51
63
-47
-75
-40
-44
66
30
42
-4
-9
-35
-66
64
58
-77
-24
27
62
-27
-77
4
-7
-5
15
-11
0
-85
26
68
43
33
-62
33
-13
-23
23
38
-74
39
-72
22
-16
3
-1
62
-51
21
-1
12
69
47
-37
4
57
63
43
-42
48
10
2
7
55
-40
-1
38
68
66
26
-67
-64
46
11
-78
-48
-80
-64
-72
51
-31
32
-12
-85
62
-39
20
14
-22
68
45
61
57
20
55
0
-15
-61
33
20
46
-30
-64
63
46
-25
18
-38
-13
-51
23
56
13
-38
-33
27
-77
60
-20
12
38
-49
26
22
-37
-8
-31
-23
12
-4
-79
-22
-29
35
-46
-66
-9
31
47
52
-58
-34
-9
-3
-1
8
-16
-54
-7
56
-37
20
20
-48
19
-66
28
-45
-42
-36
49
-33
44
72
66
-65
-24
53
-29
-7
-44
54
13
28
-17
44
49
-53
-69
82
-46
33
2
62
30
-44
51
29
40
-17
54
-73
31
-64
-80
-6
57
-32
42
-35
67
-53
-8
-33
48
-56
-65
17
26
-52
-18
-55
18
-82
-53
-51
58
-15
36
-32
-29
-72
10
-43
-34
32
66
33
-16
-5
-43
-17
25
-22
-48
63
12
-71
-61
57
-50
-41
-33
-58
-47
69
54
-54
21
5
48
55
71
56
-20
-41
-77
-38
-27
-76
-62
37
-20
-11
58
-67
-49
-49
31
65
-58
-10
-12
-24
-61
-34
-76
68
-83
-28
-69
-72
18
61
2
45
58
-70
-18
14
-40
-48
-5
-39
-52
63
-63
5
-39
25
35
52
9
24
45
-79
-42
68
28
58
-17
58
17
0
50
-33
21
9
33
67
29
-35
-9
32
-65
31
73
-77
-62
-85
20
27
4
-76
15
-80
-17
-23
34
37
15
-8
-67
-72
3
-53
16
-55
56
-65
-70
-30
-8
-12
2
-71
-26
62
-12
57
22
-40
-76
-67
20
-67
-63
63
51
57
66
56
39
57
-2
-50
-42
-21
64
48
60
37
16
62
49
30
57
0
68
-68
0
-86
17
-69
70
-54
2
-56
-29
-3
17
-11
8
-25
38
-8
18
-20
-33
-22
13
-46
-37
5
-68
0
-25
-29
-16
28
-77
71
-78
-62
-11
-29
48
-13
-64
22
-79
-60
56
37
24
-10
21
-73
17
42
7
-2
9
-34
-71
-37
-21
-38
-37
-47
28
-20
-52
49
-22
20
-76
-35
19
-42
-44
-58
58
-56
6
-37
31
3
-36
-16
58
-64
-40
39
2
54
-9
-74
-42
29
44
-31
-10
-32
-58
-21
20
-44
40
37
-50
45
65
-54
12
6
3
38
69
15
9
57
12
3
-31
30
-29
-20
20
23
-43
61
-56
-24
-27
-18
-74
14
2
-42
-76
20
4
24
-13
46
-21
55
-60
-41
-8
-32
66
39
-19
32
-71
-33
-23
-9
-73
-43
9
16
-35
-1
4
-21
-44
57
66
36
-18
-73
34
-9
-47
3
8
19
42
-70
35
46
-49
14
-17
-27
-63
-5
