fef3031cee021ae7
17282c6526c7f3ee
0e1f27291a1119f1
fc02f40bf70ef10c
12040a2b2a040720
0f1ff31306dfe703
fe36e3f92fe5da25
1bdf29f2d5dddeed
ef0ceed70ce6eaef
fa2f2b2c1d03e935
f12b25fe291e0a0c
080b0a010ced09f6
1d222e280c1f24f9
dff12d0eec0be4f4
2bd10a32cafb36f4
d82cd3ebd5e8d945
ff110d180d1ffdf9
f204efdce9ca3031
e0e2ddefd8e5252a
fe09fd08fdf40cfc
ec030de6f3ffff0a
00e9f506e9dff203
07f9f4fa140fea16
01ff0d05fd062201
051708191115fd13
f6f3e506eb0004f1
d6e50b0b07fd08e3
f2ff0c0eed06eef7
cfe0f4e1d4e6edf5
1209fc1920021207
2f1a26202cf20d15
1d1f1d2b14251207
ee18fafa051c1905
1d0bee01f9daf4f8
12040ff9edcac701
f7f70cef000904ee
2d140626c5e0ddd8
f3e9fa10fbe806fc
28eee22a2928ff29
d6f4e3e5142a2d2c
1d10f2f0ef05f3ed
cbfbeaf810043550
e61bf6f700112335
f2fbf0edff07eff5
f7030f180708010f
01efffea13fc040a
f6d908fb1f21e21b
15e410231ce310f1
16feef20f9f917fc
09e2e8fd01ea131a
28ffe9131df30f1d
ec01fff6fbf004fe
0934edfaf7ef0c07
faf5f90708030f2a
bc13e0e926ebd60b
decb023ae62026e0
f8e2f3ded0fceb1c
cfce24432e7048f6
09f32111044522fc
070a02010010f1ff
1d13190e26212403
f6df0f1a072723ed
29dff317e6f136cf
f3565be63af8d717
021617f10c06ff12
edf1f7252011ed11
f1f104171c03061c
fcfc03f711090ff4
e7ecec081b0b03fc
fa11effc1bf2faf1
fbfc03eaf810fdfd
3520f731fd03fe02
e7f4f4f1fd07e406
2d13174108c3070f
1b2c161f06ff0bf2
ede500052a0d1617
1d020503e7e508f7
0ee9042cf3e914e7
28071234f1190fe3
14ff307f0fd23908
08efd6020303f803
f80834f9fd13d906
243f1c2427030604
f9f20bf7f72918d9
e9f2fef9e4e3f606
d90e0cecef09ea0e
e0401407230af23a
eb4431f32725ec23
0f1d1f1014171505
eff00fe3e7f41702
fbe1f4d7d3df3715
17202b0d22fed2d6
121c120812faf3fa
0af400ef05f7f4de
f3e707ecfae52c17
fdeff1d5c9e311fa
24102a1c241cf7f8
1c1d11051a031803
d8e5ebecd6e509fd
1c101c022e0df807
18101f0507031803
1319161f11f014fe
05ebe80011090603
fed7140310edf6f6
030803141c2c332d
fbd907ea03fcff11
1a0407feead7d6d4
10f22526052b0a07
f7e7f8fc1a112217
fae40aee10ff0d2e
0527f7ebecd7e6f9
ec2d310800c9e3fe
0ef7fd17f2fbf5e5
d3f1f904020c1c36
f71e03fd280f213b
0c1724d6e0dfddf9
1e00f009fdf601eb
021414fdfbea1f11
fc19111416f32937
b9330de0ecfd1b5a
d4e0250d0c10f3f8
ddeefa0301041b01
2719e6fc15e60f0e
243af8f805f3070c
dbf4f4121415f4fc
fcecedf8090f20fc
2c1bfa030c1e2efd
3e4df3fb00f2312f
0a07e0e306d5eedd
f2e81d1bf22d11d2
e7f4183d193f402c
03cdcaddded71c13
fdf613f114e4ece6
f6d5fee5011d0dd3
051f19261d381707
fbc6fa2903512811
200a00fb0608090c
ef0cf20624f7e810
0a10051721f9f603
0702f2f105160203
1a050a130c0c1601
f20301011bf90409
f412020822f5fd10
bbd4e71b0ded182f
