-15
40
-18
-91
-81
52
14
81
33
-17
-107
56
-72
-5
44
-56
-28
28
-53
34
94
6
-21
-99
-34
105
106
-62
-109
92
-39
17
-81
51
-12
114
-33
-63
6
19
16
-9
-114
-39
-74
-97
-41
88
-78
11
-58
16
-50
-7
17
66
86
-61
-90
36
-69
-18
45
-104
45
-3
-52
50
-87
-65
30
-98
-29
124
-86
-50
20
-6
25
-62
-98
-23
-105
43
-22
9
110
100
29
-20
-35
-41
-42
-21
47
96
-50
-112
57
29
-37
63
-72
-98
-81
-12
72
-59
61
-83
21
37
2
-87
-105
7
103
9
37
95
-49
-18
-26
-120
-4
-66
41
69
-68
85
-102
-15
-39
42
-18
-41
89
-10
68
-114
-104
101
20
65
-101
112
-32
-15
-63
26
51
60
-109
85
-101
1
22
-54
69
-64
-44
60
-46
-116
49
-41
6
-41
-93
74
59
89
-119
-1
-110
84
111
60
-39
-40
-112
-55
62
0
-45
102
-56
37
38
-94
47
-34
19
-126
48
77
-67
97
-65
-35
47
-36
74
11
11
75
-92
39
-99
103
-51
108
111
57
7
47
64
-107
7
93
26
-59
-111
-111
-115
4
107
106
29
-111
-108
-64
-101
75
-7
74
47
17
36
-52
-110
-115
-81
59
64
73
34
23
2
73
-5
-91
-21
101
22
71
-91
-21
31
-23
90
92
84
-41
-66
-20
-27
98
78
-95
-80
86
-71
-106
-50
-8
-41
-104
-66
-86
-108
-72
103
65
95
17
-92
-102
-103
73
22
115
6
51
-9
-63
70
-86
72
-62
-107
-78
56
65
31
-82
95
-16
-36
36
-89
-6
-113
2
-94
-119
-28
-54
-67
113
-59
-49
46
109
-100
-84
-105
-72
-59
10
103
-75
73
10
-64
-2
30
-29
94
-83
38
89
127
8
-109
-76
98
-31
-76
109
85
-27
22
-34
-81
-69
-16
-99
85
-46
90
41
-118
-107
25
-27
-21
-92
-57
49
-43
-58
87
102
80
-66
96
93
-114
91
-102
46
-45
44
99
-62
-69
-87
-40
-62
71
-48
51
25
-13
-6
12
97
79
16
-53
-54
40
42
-60
-77
-24
53
87
79
18
-10
55
-44
52
32
-96
44
0
-31
39
-73
0
46
-119
-93
87
-27
-91
78
-93
-16
48
-68
-26
36
67
-63
35
101
119
-32
-31
64
-105
-113
-107
-23
73
-67
-34
50
26
-43
109
-76
6
86
-111
-7
110
-62
-114
-27
-99
33
-74
46
96
-101
-102
-32
-2
-115
33
39
31
-59
-58
-29
108
-42
110
-48
29
-80
39
-3
-39
-114
12
34
24
-71
-86
105
-67
-54
-21
-21
-77
-109
-112
100
8
92
-74
82
74
-2
94
52
70
-36
0
97
83
-119
-17
-67
-74
115
52
68
-59
17
-16
-105
-33
-57
30
91
-23
88
1
1
-12
-85
-89
-82
-17
31
50
-1
-87
25
86
-96
83
-41
50
62
101
-46
-90
-75
-53
-107
82
24
-38
-34
-22
-64
21
79
24
111
73
59
6
-49
59
73
25
-104
